const unsigned char sinwave_model[] = {0x1c, 0x0, 0x0, 0x0, 0x54, 0x46, 0x4c, 0x33, 0x14, 0x0, 0x20, 0x0, 0x1c, 0x0, 0x18, 0x0, 0x14, 0x0, 0x10, 0x0, 0xc, 0x0, 0x0, 0x0, 0x8, 0x0, 0x4, 0x0, 0x14, 0x0, 0x0, 0x0, 0x1c, 0x0, 0x0, 0x0, 0x94, 0x0, 0x0, 0x0, 0xec, 0x0, 0x0, 0x0, 0x60, 0x2, 0x0, 0x0, 0x70, 0x2, 0x0, 0x0, 0x4, 0x6, 0x0, 0x0, 0x3, 0x0, 0x0, 0x0, 0x1, 0x0, 0x0, 0x0, 0x10, 0x0, 0x0, 0x0, 0x0, 0x0, 0xa, 0x0, 0x10, 0x0, 0xc, 0x0, 0x8, 0x0, 0x4, 0x0, 0xa, 0x0, 0x0, 0x0, 0xc, 0x0, 0x0, 0x0, 0x1c, 0x0, 0x0, 0x0, 0x3c, 0x0, 0x0, 0x0, 0xf, 0x0, 0x0, 0x0, 0x73, 0x65, 0x72, 0x76, 0x69, 0x6e, 0x67, 0x5f, 0x64, 0x65, 0x66, 0x61, 0x75, 0x6c, 0x74, 0x0, 0x1, 0x0, 0x0, 0x0, 0x4, 0x0, 0x0, 0x0, 0x94, 0xff, 0xff, 0xff, 0x6, 0x0, 0x0, 0x0, 0x4, 0x0, 0x0, 0x0, 0x8, 0x0, 0x0, 0x0, 0x6f, 0x75, 0x74, 0x70, 0x75, 0x74, 0x5f, 0x30, 0x0, 0x0, 0x0, 0x0, 0x1, 0x0, 0x0, 0x0, 0x4, 0x0, 0x0, 0x0, 0x56, 0xfe, 0xff, 0xff, 0x4, 0x0, 0x0, 0x0, 0xb, 0x0, 0x0, 0x0, 0x69, 0x6e, 0x70, 0x75, 0x74, 0x5f, 0x6c, 0x61, 0x79, 0x65, 0x72, 0x0, 0x2, 0x0, 0x0, 0x0, 0x34, 0x0, 0x0, 0x0, 0x4, 0x0, 0x0, 0x0, 0xdc, 0xff, 0xff, 0xff, 0x9, 0x0, 0x0, 0x0, 0x4, 0x0, 0x0, 0x0, 0x13, 0x0, 0x0, 0x0, 0x43, 0x4f, 0x4e, 0x56, 0x45, 0x52, 0x53, 0x49, 0x4f, 0x4e, 0x5f, 0x4d, 0x45, 0x54, 0x41, 0x44, 0x41, 0x54, 0x41, 0x0, 0x8, 0x0, 0xc, 0x0, 0x8, 0x0, 0x4, 0x0, 0x8, 0x0, 0x0, 0x0, 0x8, 0x0, 0x0, 0x0, 0x4, 0x0, 0x0, 0x0, 0x13, 0x0, 0x0, 0x0, 0x6d, 0x69, 0x6e, 0x5f, 0x72, 0x75, 0x6e, 0x74, 0x69, 0x6d, 0x65, 0x5f, 0x76, 0x65, 0x72, 0x73, 0x69, 0x6f, 0x6e, 0x0, 0xa, 0x0, 0x0, 0x0, 0x70, 0x1, 0x0, 0x0, 0x68, 0x1, 0x0, 0x0, 0x30, 0x1, 0x0, 0x0, 0x14, 0x1, 0x0, 0x0, 0xdc, 0x0, 0x0, 0x0, 0xa4, 0x0, 0x0, 0x0, 0x9c, 0x0, 0x0, 0x0, 0x94, 0x0, 0x0, 0x0, 0x74, 0x0, 0x0, 0x0, 0x4, 0x0, 0x0, 0x0, 0xf6, 0xfe, 0xff, 0xff, 0x4, 0x0, 0x0, 0x0, 0x60, 0x0, 0x0, 0x0, 0xc, 0x0, 0x0, 0x0, 0x8, 0x0, 0xe, 0x0, 0x8, 0x0, 0x4, 0x0, 0x8, 0x0, 0x0, 0x0, 0x10, 0x0, 0x0, 0x0, 0x28, 0x0, 0x0, 0x0, 0x0, 0x0, 0x6, 0x0, 0x8, 0x0, 0x4, 0x0, 0x6, 0x0, 0x0, 0x0, 0x4, 0x0, 0x0, 0x0, 0x1, 0x0, 0x0, 0x0, 0xea, 0x3, 0x0, 0x0, 0xc, 0x0, 0x18, 0x0, 0x14, 0x0, 0x10, 0x0, 0xc, 0x0, 0x4, 0x0, 0xc, 0x0, 0x0, 0x0, 0x89, 0xd7, 0xf9, 0xcc, 0xfa, 0x38, 0xf7, 0x95, 0x2, 0x0, 0x0, 0x0, 0x2, 0x0, 0x0, 0x0, 0x4, 0x0, 0x0, 0x0, 0x6, 0x0, 0x0, 0x0, 0x32, 0x2e, 0x31, 0x39, 0x2e, 0x30, 0x0, 0x0, 0x62, 0xff, 0xff, 0xff, 0x4, 0x0, 0x0, 0x0, 0x10, 0x0, 0x0, 0x0, 0x31, 0x2e, 0x35, 0x2e, 0x30, 0x0, 0x0, 0x0, 0x0, 0x0, 0x0, 0x0, 0x0, 0x0, 0x0, 0x0, 0xc8, 0xfb, 0xff, 0xff, 0xcc, 0xfb, 0xff, 0xff, 0x86, 0xff, 0xff, 0xff, 0x4, 0x0, 0x0, 0x0, 0x28, 0x0, 0x0, 0x0, 0x11, 0xf7, 0x32, 0x3f, 0xb3, 0x7b, 0x72, 0xbf, 0x60, 0xd2, 0x58, 0x3f, 0xbc, 0xf1, 0xae, 0xbe, 0x1a, 0x36, 0xd, 0x3f, 0xd8, 0x93, 0xfb, 0x3e, 0xad, 0x13, 0x83, 0x3f, 0xef, 0x8e, 0x13, 0xbf, 0x56, 0x2b, 0xa4, 0xbe, 0x22, 0x32, 0x25, 0xbf, 0xba, 0xff, 0xff, 0xff, 0x4, 0x0, 0x0, 0x0, 0x28, 0x0, 0x0, 0x0, 0x48, 0x4c, 0xb, 0x3f, 0x9, 0x85, 0xe5, 0xbe, 0xb8, 0x66, 0xbe, 0xbe, 0x69, 0x99, 0xf1, 0x3e, 0x40, 0xe6, 0x1c, 0xbf, 0x2f, 0x8e, 0x29, 0x3f, 0xf2, 0x64, 0x3e, 0xbf, 0x95, 0xd8, 0xff, 0x3e, 0x3, 0xb0, 0xe4, 0x3e, 0xf5, 0x2f, 0x2f, 0xbf, 0xee, 0xff, 0xff, 0xff, 0x4, 0x0, 0x0, 0x0, 0x4, 0x0, 0x0, 0x0, 0x93, 0x4f, 0x42, 0xbd, 0x0, 0x0, 0x6, 0x0, 0x8, 0x0, 0x4, 0x0, 0x6, 0x0, 0x0, 0x0, 0x4, 0x0, 0x0, 0x0, 0x28, 0x0, 0x0, 0x0, 0xfa, 0x6c, 0x4d, 0xbf, 0x6f, 0x16, 0x9c, 0xbf, 0x5b, 0xa, 0x84, 0x3f, 0x3d, 0x28, 0x20, 0x3f, 0x28, 0xf5, 0xe9, 0x3f, 0x14, 0xb8, 0x25, 0xbf, 0xc4, 0xc1, 0x21, 0x3f, 0x76, 0x7a, 0x40, 0x3f, 0xe2, 0xe2, 0xf, 0x3f, 0x82, 0x81, 0xf7, 0xbf, 0x84, 0xfc, 0xff, 0xff, 0x88, 0xfc, 0xff, 0xff, 0xf, 0x0, 0x0, 0x0, 0x4d, 0x4c, 0x49, 0x52, 0x20, 0x43, 0x6f, 0x6e, 0x76, 0x65, 0x72, 0x74, 0x65, 0x64, 0x2e, 0x0, 0x1, 0x0, 0x0, 0x0, 0x14, 0x0, 0x0, 0x0, 0x0, 0x0, 0xe, 0x0, 0x18, 0x0, 0x14, 0x0, 0x10, 0x0, 0xc, 0x0, 0x8, 0x0, 0x4, 0x0, 0xe, 0x0, 0x0, 0x0, 0x14, 0x0, 0x0, 0x0, 0x1c, 0x0, 0x0, 0x0, 0xa0, 0x0, 0x0, 0x0, 0xa4, 0x0, 0x0, 0x0, 0xa8, 0x0, 0x0, 0x0, 0x4, 0x0, 0x0, 0x0, 0x6d, 0x61, 0x69, 0x6e, 0x0, 0x0, 0x0, 0x0, 0x2, 0x0, 0x0, 0x0, 0x48, 0x0, 0x0, 0x0, 0x4, 0x0, 0x0, 0x0, 0xce, 0xff, 0xff, 0xff, 0x10, 0x0, 0x0, 0x0, 0x0, 0x0, 0x0, 0x8, 0xc, 0x0, 0x0, 0x0, 0x10, 0x0, 0x0, 0x0, 0xfc, 0xfc, 0xff, 0xff, 0x1, 0x0, 0x0, 0x0, 0x6, 0x0, 0x0, 0x0, 0x3, 0x0, 0x0, 0x0, 0x5, 0x0, 0x0, 0x0, 0x1, 0x0, 0x0, 0x0, 0x2, 0x0, 0x0, 0x0, 0x0, 0x0, 0xe, 0x0, 0x16, 0x0, 0x0, 0x0, 0x10, 0x0, 0xc, 0x0, 0xb, 0x0, 0x4, 0x0, 0xe, 0x0, 0x0, 0x0, 0x18, 0x0, 0x0, 0x0, 0x0, 0x0, 0x0, 0x8, 0x18, 0x0, 0x0, 0x0, 0x1c, 0x0, 0x0, 0x0, 0x0, 0x0, 0x6, 0x0, 0x8, 0x0, 0x7, 0x0, 0x6, 0x0, 0x0, 0x0, 0x0, 0x0, 0x0, 0x1, 0x1, 0x0, 0x0, 0x0, 0x5, 0x0, 0x0, 0x0, 0x3, 0x0, 0x0, 0x0, 0x0, 0x0, 0x0, 0x0, 0x4, 0x0, 0x0, 0x0, 0x3, 0x0, 0x0, 0x0, 0x1, 0x0, 0x0, 0x0, 0x6, 0x0, 0x0, 0x0, 0x1, 0x0, 0x0, 0x0, 0x0, 0x0, 0x0, 0x0, 0x7, 0x0, 0x0, 0x0, 0x60, 0x2, 0x0, 0x0, 0x8, 0x2, 0x0, 0x0, 0x98, 0x1, 0x0, 0x0, 0x40, 0x1, 0x0, 0x0, 0xf4, 0x0, 0x0, 0x0, 0x60, 0x0, 0x0, 0x0, 0x4, 0x0, 0x0, 0x0, 0xd2, 0xfd, 0xff, 0xff, 0x0, 0x0, 0x0, 0x1, 0x14, 0x0, 0x0, 0x0, 0x1c, 0x0, 0x0, 0x0, 0x1c, 0x0, 0x0, 0x0, 0x7, 0x0, 0x0, 0x0, 0x34, 0x0, 0x0, 0x0, 0x2, 0x0, 0x0, 0x0, 0xff, 0xff, 0xff, 0xff, 0x1, 0x0, 0x0, 0x0, 0xbc, 0xfd, 0xff, 0xff, 0x1b, 0x0, 0x0, 0x0, 0x53, 0x74, 0x61, 0x74, 0x65, 0x66, 0x75, 0x6c, 0x50, 0x61, 0x72, 0x74, 0x69, 0x74, 0x69, 0x6f, 0x6e, 0x65, 0x64, 0x43, 0x61, 0x6c, 0x6c, 0x5f, 0x31, 0x3a, 0x30, 0x0, 0x2, 0x0, 0x0, 0x0, 0x1, 0x0, 0x0, 0x0, 0x1, 0x0, 0x0, 0x0, 0x2a, 0xfe, 0xff, 0xff, 0x0, 0x0, 0x0, 0x1, 0x14, 0x0, 0x0, 0x0, 0x1c, 0x0, 0x0, 0x0, 0x1c, 0x0, 0x0, 0x0, 0x6, 0x0, 0x0, 0x0, 0x6c, 0x0, 0x0, 0x0, 0x2, 0x0, 0x0, 0x0, 0xff, 0xff, 0xff, 0xff, 0xa, 0x0, 0x0, 0x0, 0x14, 0xfe, 0xff, 0xff, 0x52, 0x0, 0x0, 0x0, 0x73, 0x65, 0x71, 0x75, 0x65, 0x6e, 0x74, 0x69, 0x61, 0x6c, 0x5f, 0x31, 0x2f, 0x64, 0x65, 0x6e, 0x73, 0x65, 0x5f, 0x31, 0x2f, 0x4d, 0x61, 0x74, 0x4d, 0x75, 0x6c, 0x3b, 0x73, 0x65, 0x71, 0x75, 0x65, 0x6e, 0x74, 0x69, 0x61, 0x6c, 0x5f, 0x31, 0x2f, 0x64, 0x65, 0x6e, 0x73, 0x65, 0x5f, 0x31, 0x2f, 0x52, 0x65, 0x6c, 0x75, 0x3b, 0x73, 0x65, 0x71, 0x75, 0x65, 0x6e, 0x74, 0x69, 0x61, 0x6c, 0x5f, 0x31, 0x2f, 0x64, 0x65, 0x6e, 0x73, 0x65, 0x5f, 0x31, 0x2f, 0x42, 0x69, 0x61, 0x73, 0x41, 0x64, 0x64, 0x0, 0x0, 0x2, 0x0, 0x0, 0x0, 0x1, 0x0, 0x0, 0x0, 0xa, 0x0, 0x0, 0x0, 0xe, 0xff, 0xff, 0xff, 0x0, 0x0, 0x0, 0x1, 0x10, 0x0, 0x0, 0x0, 0x10, 0x0, 0x0, 0x0, 0x5, 0x0, 0x0, 0x0, 0x28, 0x0, 0x0, 0x0, 0x94, 0xfe, 0xff, 0xff, 0x1b, 0x0, 0x0, 0x0, 0x73, 0x65, 0x71, 0x75, 0x65, 0x6e, 0x74, 0x69, 0x61, 0x6c, 0x5f, 0x31, 0x2f, 0x64, 0x65, 0x6e, 0x73, 0x65, 0x5f, 0x31, 0x2f, 0x4d, 0x61, 0x74, 0x4d, 0x75, 0x6c, 0x0, 0x2, 0x0, 0x0, 0x0, 0xa, 0x0, 0x0, 0x0, 0x1, 0x0, 0x0, 0x0, 0x56, 0xff, 0xff, 0xff, 0x0, 0x0, 0x0, 0x1, 0x10, 0x0, 0x0, 0x0, 0x10, 0x0, 0x0, 0x0, 0x4, 0x0, 0x0, 0x0, 0x38, 0x0, 0x0, 0x0, 0xdc, 0xfe, 0xff, 0xff, 0x2b, 0x0, 0x0, 0x0, 0x73, 0x65, 0x71, 0x75, 0x65, 0x6e, 0x74, 0x69, 0x61, 0x6c, 0x5f, 0x31, 0x2f, 0x64, 0x65, 0x6e, 0x73, 0x65, 0x5f, 0x31, 0x2f, 0x42, 0x69, 0x61, 0x73, 0x41, 0x64, 0x64, 0x2f, 0x52, 0x65, 0x61, 0x64, 0x56, 0x61, 0x72, 0x69, 0x61, 0x62, 0x6c, 0x65, 0x4f, 0x70, 0x0, 0x1, 0x0, 0x0, 0x0, 0xa, 0x0, 0x0, 0x0, 0xaa, 0xff, 0xff, 0xff, 0x0, 0x0, 0x0, 0x1, 0x10, 0x0, 0x0, 0x0, 0x10, 0x0, 0x0, 0x0, 0x3, 0x0, 0x0, 0x0, 0x38, 0x0, 0x0, 0x0, 0x30, 0xff, 0xff, 0xff, 0x29, 0x0, 0x0, 0x0, 0x73, 0x65, 0x71, 0x75, 0x65, 0x6e, 0x74, 0x69, 0x61, 0x6c, 0x5f, 0x31, 0x2f, 0x64, 0x65, 0x6e, 0x73, 0x65, 0x5f, 0x31, 0x5f, 0x32, 0x2f, 0x41, 0x64, 0x64, 0x2f, 0x52, 0x65, 0x61, 0x64, 0x56, 0x61, 0x72, 0x69, 0x61, 0x62, 0x6c, 0x65, 0x4f, 0x70, 0x0, 0x0, 0x0, 0x1, 0x0, 0x0, 0x0, 0x1, 0x0, 0x0, 0x0, 0x0, 0x0, 0x16, 0x0, 0x18, 0x0, 0x14, 0x0, 0x0, 0x0, 0x10, 0x0, 0xc, 0x0, 0x8, 0x0, 0x0, 0x0, 0x0, 0x0, 0x0, 0x0, 0x7, 0x0, 0x16, 0x0, 0x0, 0x0, 0x0, 0x0, 0x0, 0x1, 0x10, 0x0, 0x0, 0x0, 0x10, 0x0, 0x0, 0x0, 0x2, 0x0, 0x0, 0x0, 0x1c, 0x0, 0x0, 0x0, 0x9c, 0xff, 0xff, 0xff, 0xe, 0x0, 0x0, 0x0, 0x61, 0x72, 0x69, 0x74, 0x68, 0x2e, 0x63, 0x6f, 0x6e, 0x73, 0x74, 0x61, 0x6e, 0x74, 0x0, 0x0, 0x2, 0x0, 0x0, 0x0, 0x1, 0x0, 0x0, 0x0, 0xa, 0x0, 0x0, 0x0, 0x0, 0x0, 0x16, 0x0, 0x1c, 0x0, 0x18, 0x0, 0x0, 0x0, 0x14, 0x0, 0x10, 0x0, 0xc, 0x0, 0x0, 0x0, 0x0, 0x0, 0x8, 0x0, 0x7, 0x0, 0x16, 0x0, 0x0, 0x0, 0x0, 0x0, 0x0, 0x1, 0x14, 0x0, 0x0, 0x0, 0x20, 0x0, 0x0, 0x0, 0x20, 0x0, 0x0, 0x0, 0x1, 0x0, 0x0, 0x0, 0x3c, 0x0, 0x0, 0x0, 0x2, 0x0, 0x0, 0x0, 0xff, 0xff, 0xff, 0xff, 0x1, 0x0, 0x0, 0x0, 0x4, 0x0, 0x4, 0x0, 0x4, 0x0, 0x0, 0x0, 0x1d, 0x0, 0x0, 0x0, 0x73, 0x65, 0x72, 0x76, 0x69, 0x6e, 0x67, 0x5f, 0x64, 0x65, 0x66, 0x61, 0x75, 0x6c, 0x74, 0x5f, 0x69, 0x6e, 0x70, 0x75, 0x74, 0x5f, 0x6c, 0x61, 0x79, 0x65, 0x72, 0x3a, 0x30, 0x0, 0x0, 0x0, 0x2, 0x0, 0x0, 0x0, 0x1, 0x0, 0x0, 0x0, 0x1, 0x0, 0x0, 0x0, 0x1, 0x0, 0x0, 0x0, 0x10, 0x0, 0x0, 0x0, 0xc, 0x0, 0xc, 0x0, 0xb, 0x0, 0x0, 0x0, 0x0, 0x0, 0x4, 0x0, 0xc, 0x0, 0x0, 0x0, 0x9, 0x0, 0x0, 0x0, 0x0, 0x0, 0x0, 0x9};
const int sinwave_model_len = 1624;